     -0.1187646233
     -0.0016421257
     -0.6841671399
     -0.0448199458
      0.0610915968
      0.1038946222
     -0.5057635966
     -0.4364419923
     -0.0000083543
      0.3117646001
     -0.3470946632
      0.0054305374
     -0.0096964572
      0.0503019805
     -0.1631872034
      0.1044693956
      0.2393924498
      0.0618103759
      0.1385631019
      0.2372741137
      0.2594019849
     -0.5695538153
      0.0991075119
     -0.3631741491
      0.4716818540
      0.2869905687
      0.1454477983
     -0.1855271706
      0.1030233239
     -0.1704486289
     -0.2095742540
     -0.8392641657
      0.3378402289
      0.0534176339
     -0.0096885942
     -0.2921249563
      0.5657480780
     -0.7915980095
     -0.1739422139
     -0.5571880580
     -0.0535628343
     -0.1476988254
     -0.1269102508
     -0.1478449935
     -0.4300677630
     -0.4168538894
      0.0158310845
     -0.5291755222
     -0.0910549365
      0.2036120739
      0.2855916122
     -0.2782308528
      0.0082765667
     -0.3966460458
      0.0940725401
     -0.3524427319
      0.0014269465
      0.1678037333
     -0.2677424883
     -0.2211195199
      0.1072817378
     -0.2576080931
      0.2732970382
     -0.4140490241
     -0.2131471525
      0.4520565922
     -0.1969682579
      0.0474124249
      0.0491279081
     -0.1154737877
     -0.4216602393
     -0.0023272841
      0.2568955476
      0.4330410681
     -0.1190566437
      0.1001610357
      0.1123969893
      0.1217037639
      0.2061015609
     -0.3399341472
      0.0592901281
      0.1894466981
     -0.0714514227
     -0.0639574656
     -0.3614755841
     -0.4363107731
     -0.1379877940
      0.2868020480
     -0.1774005150
     -0.4338754885
     -0.0199771627
     -0.0134964005
      0.5477022451
      0.0293188371
     -0.1816686996
     -0.4566231282
      0.2896500150
      0.0040888509
     -0.2037897142
      0.5613880047
      0.0013081852
      0.0802397257
     -0.2027269040
     -0.6529217073
      0.2384036280
      0.3793374426
      0.2519559270
      0.0642600501
     -0.1813954436
     -0.0892177676
      0.1182374213
      0.2194102113
     -0.0140073667
      0.5198399328
     -0.0014345333
      0.2560617919
      0.4877132661
     -0.2673946989
     -0.0130700042
     -0.3172905430
     -0.3047866127
      0.1153607203
      0.1733387907
      0.3016986923
      0.0755332211
     -0.1481112144
      0.1697773506
     -0.3111330038
      0.1351390489
      0.1994534811
     -0.4282965737
     -0.4256365006
     -0.2712341877
      0.0921875910
      0.3366978070
     -0.3199513172
      0.1245952255
     -0.0902714601
      0.1727552588
      0.0060267650
      0.1554258700
     -0.2269103976
      0.3160734389
      0.4738749633
     -0.1540566546
      0.0568131193
     -0.4373023775
      0.1354653816
     -0.0537177878
      0.0031767106
      0.0979529946
      0.0606279822
     -0.1179292052
     -0.2492434585
     -0.0010777334
      0.2642968088
      0.1949813760
      0.2965562510
     -0.2175164170
     -0.5375183416
      0.3222391088
      0.0927601496
     -0.4596552565
      0.5174972742
     -0.4306558800
     -0.1557373296
      0.1302917430
      0.2042784079
      0.0080325252
     -0.1633835061
      0.3934181553
      0.4599061810
      0.8334231727
     -0.1928562865
     -0.1093064560
      0.1633178894
      0.2971529819
      0.1729037730
      0.2903350515
      0.2098835732
     -0.1042345941
      0.2751695128
      0.3623797250
     -0.1673775411
     -0.0155779537
      0.6088841886
     -0.4775966833
      0.4977424037
     -0.1186325800
      0.0218140731
     -0.1089221582
      0.4161294694
     -0.0773234844
      0.5496493292
      0.0763155275
     -0.0436539028
      0.4470537334
      0.3319822494
      0.0912178400
     -0.0481349997
     -0.1147704514
     -0.3909664250
      0.4264515061
     -0.3588448808
     -0.3595420742
      0.8320910045
     -0.1329126750
      0.1437283865
     -0.0604281261
      0.3279311578
      0.7130190919
     -0.3639850993
     -0.0970087562
     -0.0820867582
     -0.0822637831
      0.5420905878
     -0.2007837158
      0.3377859511
      0.0806560715
      0.0488415231
     -0.5250699542
      0.5335033707
     -0.1744077998
     -0.1084221830
     -0.3233522800
     -0.1258067149
     -0.2969878503
      0.2033115309
      0.3797861492
      0.2319659955
      0.0085383817
      0.1636411625
      0.1542472680
     -0.3455714052
     -0.0403832352
      0.3570930319
     -0.0704835492
     -0.0943307727
     -0.0819614949
      0.3909693526
     -1.1995879373
     -0.9251787809
      1.2057035282
     -0.0380811261
      0.1972396291
     -0.5509351288
      0.0430822204
     -0.7332905020
     -0.6613996016
      0.0018920563
      0.8826402964
     -0.2052330482
      0.3905954660
     -0.0159080359
      0.5648622991
     -1.0936302001
     -0.2642937065
      0.2386640883
     -0.0273896401
     -0.8677763267
     -0.2400472582
      0.7903297110
      0.4910691068
      0.2178175212
      0.1916932979
      0.3768660074
     -0.0128209461
     -0.5015609786
     -0.2345392427
      0.1916316815
     -0.2132460878
     -0.0761913240
     -0.0698265307
     -0.6352400851
      0.2929982939
     -0.2615223337
     -0.6360310051
     -0.8157529396
      0.1965120808
      0.5323487635
     -0.4628770883
      0.1028923932
     -0.1248611564
     -0.5411229618
     -0.1515475057
      0.1932925912
     -0.7496970314
      0.0442577661
     -0.1642294172
      0.5164069487
     -0.8327054831
      0.4219312159
     -0.0519155495
      0.3679291426
     -0.6463759067
      0.4270172805
     -0.0826029648
      0.1613725863
     -0.0240812767
      1.1074751753
     -0.0890115379
     -0.0061210834
      0.0478778597
     -0.1828669192
      0.8130709951
      0.5866871130
     -0.5903070602
     -0.1495042552
      0.9090215811
     -0.5756091734
      0.1171590157
      0.9064631788
      1.7096564545
      0.3373456856
      0.3091276646
     -0.1809673988
      0.2494586735
     -0.6032772711
      1.8779666605
     -0.5364220693
     -0.7402577891
     -0.3976984082
     -0.0555632307
     -0.3841084062
      0.1383779336
      0.6195049556
      0.2246692795
     -0.7997989381
      0.1822133769
      0.4343878119
     -0.2669240838
     -1.5734632802
      0.0959168645
     -0.4483814350
     -0.4400220868
      0.6336910571
      0.5192745551
      0.2299447402
      0.5904422358
     -0.5081522885
     -1.1021888518
      0.0825442129
     -0.1055841466
      0.1758507618
     -0.2061777989
      0.8253487290
     -0.2621897347
     -0.6465498740
      0.2592623018
      0.2002404512
      0.3952609528
      0.3356510433
     -0.6296072119
     -0.0672020868
     -0.3312563987
      0.9759341734
     -0.3615967241
      0.1207515343
     -0.1570196820
     -0.0198340390
      0.9229814215
      0.7486641387
     -0.4994103794
      0.0051744395
      0.1100865240
      0.4836326167
      0.2945546742
      0.9588432483
      0.3133136681
     -0.3578233197
      0.2084930966
      0.4097101934
      0.1055943259
     -0.2054854995
      0.1298306801
     -0.4771366398
      0.5002193894
      0.0061630721
     -0.5568786895
     -0.1337852536
     -0.1609919750
     -0.1456807714
      0.4981112734
     -0.1503564934
     -0.0503805530
     -0.0075376615
     -0.2710243164
     -0.0765789908
     -0.0759628318
     -0.4600388383
     -0.0927734945
     -0.3010005444
     -0.3056173361
      0.1298863769
     -0.0331569399
     -0.0776410464
      0.6955716042
     -0.0500115778
      0.3514171986
     -0.7176404410
      0.4731437432
     -0.1889760716
      0.2277493298
     -0.6322149036
      0.6487092061
     -0.0784747260
     -0.2869031381
      0.2327562538
     -0.0936884876
     -0.1494583459
     -0.1564330613
     -0.0807408379
      0.4816357391
     -0.0004894933
     -0.1100691875
     -0.1491985591
      0.2110925243
      0.1002872548
     -0.5780267378
      0.1423126810
     -0.1773181460
      0.4810523446
     -0.2020845723
      0.1617009596
     -0.5942031440
     -0.3435135029
      0.0491877861
     -0.6928609304
      0.1051321106
      0.3344670968
      0.1847891807
     -0.3769903390
     -0.0134246547
     -0.4023172739
      0.5228336262
      0.0612094421
     -0.1767581263
      0.3351115345
     -0.2515783464
     -0.4590609929
      0.4033427304
      0.2083356440
     -0.2593504621
     -0.0469459978
      0.0318901921
     -0.1428264646
     -0.1526629061
     -0.0127248669
      0.1256869095
     -0.4586684143
     -0.1538680994
     -0.0573366964
      0.1836760739
      0.7218392840
     -0.4311985040
      0.9003043898
      0.1306520467
     -0.1296710530
      0.3850339692
     -0.0446193039
     -0.5522726549
      0.3348433552
      0.0594888393
     -0.4411439840
      0.0826973717
      0.0131047811
      0.2828162490
      0.0005944379
      0.5293112444
     -0.0426156108
      0.2538102979
     -0.0530431548
     -0.3697921045
     -0.5050052196
      0.1954206661
     -0.2418153038
     -0.6811403627
      0.3605859291
     -0.0974892057
      0.0988028486
      0.2121203086
      1.0616233477
     -0.5368747366
     -0.0094293419
     -0.1400634492
     -0.2726878286
      0.8445968087
      0.0367678339
     -0.3492360855
     -0.0469520923
      0.1533865445
     -0.2912595546
      0.1886705073
     -0.4398211224
     -0.3713176098
      0.3661770416
      0.1638887759
     -0.5557228076
     -0.2722303295
      0.3591207330
     -0.4306027418
      0.3497911502
      0.2074370985
     -0.1646571121
      0.0833157330
     -0.1424633067
      0.4564731187
     -0.1566983681
     -0.5118120733
      0.5811597766
     -0.2199147065
      0.6487340793
     -0.5278220550
     -0.2318230816
     -0.1381702694
      0.0117044646
     -0.1258714826
     -0.1156188792
     -0.1274504989
     -0.0603144147
     -0.5992042311
     -0.5210385943
     -0.8568748735
      0.0975819469
     -0.3827630149
      0.4614987134
     -0.3159135337
      0.3275022482
      0.4730299226
      0.7443661305
      0.4484769856
     -0.0459722377
     -0.4743274219
      0.1655568475
      1.2708924360
      0.5778416439
      0.6131335791
      0.1542124671
      0.6942204501
     -0.4601848519
     -0.1810092141
     -0.0369121318
     -0.1081988040
     -0.6429199150
      0.4933625274
     -0.3213651505
     -0.2582753213
      0.2984488100
     -0.2387663483
     -0.0548391911
      0.4676305626
      0.1005944979
      0.2473703148
     -0.0034134309
     -0.3073060437
     -0.6251729680
      0.0420166138
     -0.3541656554
     -0.4686091445
     -0.2384620918
     -0.0439963412
     -0.0000635334
     -0.2230326171
      0.0335036423
      0.0006677745
     -0.4774747662
      0.5621129162
     -0.5218996240
      0.3030204927
      0.2852464373
     -0.3227474901
     -0.4124642148
      0.8483420035
      0.3458618428
      0.0074753901
      0.2970798760
     -0.1326580228
      0.1646127050
      0.0114058421
     -0.3288088294
      0.1158005670
      0.1157211139
     -0.0217162684
      0.4534052740
      0.2502289120
     -0.0052533397
     -0.6822759713
      0.0878916184
     -0.4830048927
     -0.1698594358
      0.0860370469
      0.1437970203
     -0.0040427971
     -0.0427156050
     -0.1886707643
     -0.0556751098
      0.0875996106
     -0.2034310727
     -0.1975014568
      0.0499774116
     -0.1641728038
     -0.5404953079
      0.4142964016
     -0.1864731183
     -0.1380806437
     -0.2027000046
     -0.1319541985
     -0.7862245197
      0.4647029712
     -0.0247033211
      0.0787604273
     -0.0747131589
     -0.5659062847
     -0.4058394720
      0.5569661612
     -0.3734249070
      0.0266931909
     -0.1974859456
      0.0501700089
     -0.1855041516
      0.2764673584
      0.9593407437
     -0.3752024866
      0.9226337186
     -0.2502427982
     -0.1603308361
      0.1584077822
     -0.3168500262
     -0.3662865526
      0.4571544762
     -0.0472417348
     -0.4672549056
     -0.1788686031
     -0.3245215612
      0.0365985469
      0.1190410053
      0.2833095536
     -0.2820146232
      0.3966634284
     -0.1071426299
     -0.3986712218
      0.2793869790
      0.1666142668
      0.3305203953
     -0.5456227991
     -0.0957002344
     -0.3045087120
      0.5444122134
     -0.3032056989
      0.4277338530
     -0.9587085679
      0.1274160978
     -0.6369169612
     -0.2152411797
      0.7497114240
      0.6656808412
     -0.8156087818
      0.2505244920
      0.2538926776
     -0.2713909154
      0.1456288932
     -0.2719558882
     -0.6268122182
      0.3397766472
      0.1072239614
     -0.0122537636
     -0.0573615069
      0.4223644433
     -0.1990794243
      0.4537283971
      0.0405918153
      0.0907134968
     -0.0864680836
     -0.0434091542
      0.0325414120
      0.1450206409
      0.3812702877
     -0.3080807745
      0.2967460894
     -0.0277633971
      0.5146180444
     -0.8266561610
     -0.1075353882
      0.2158034413
      0.1870485161
     -0.8365475921
      0.1402192962
     -0.7902498714
     -0.1847969475
      0.3700650537
      0.0170675842
     -1.0009470968
      1.2758824990
     -0.3341790167
     -0.3268040567
      0.1796753752
     -0.0597962728
     -0.1773724192
      0.0879241009
     -0.0241094933
     -0.0468007849
     -0.0530006102
      0.6263384832
     -0.0167339776
      0.4029601318
      1.2523354602
     -0.2713521626
      0.9087235991
     -0.3183237337
     -0.2994108032
     -0.5339967159
     -0.3769786711
     -0.0856605162
      0.4973363144
     -0.4922009059
     -0.1202665094
     -0.1325202634
     -0.1523125484
      0.1979309968
      0.7035977452
     -0.0139441993
     -0.0535138909
     -0.4131228656
     -0.5038147854
      0.1859189144
      0.1339437433
     -0.3232203251
      0.2804095604
      0.3457748949
     -0.4807648299
      0.7322790004
      0.7060705294
     -0.5170240888
     -0.6221499499
     -0.8468051750
     -0.4562093278
     -0.0314072525
      0.0682482917
     -0.0669359516
      0.1793204372
     -0.2407658017
      0.1647430799
      0.6527213600
     -0.1975558506
     -0.1263334618
     -0.9464152780
     -0.4477297119
      0.6955434722
     -0.9112088368
      0.0982465273
      0.0868796471
      0.9006286884
     -0.5041480091
      0.7343667446
     -0.0314754371
     -0.5281003729
     -0.1516748571
     -0.3097312593
     -0.2190438092
      0.4885335968
      0.6897541013
      0.1579024767
      0.1653765565
      0.2137739091
     -0.7540185591
     -0.3105634453
      0.1153593071
      0.2236419965
      0.2451377779
      0.0139889961
      0.3730232788
      0.0450344811
      0.0830240491
      0.3808665831
      0.0221208760
      0.5432857647
     -1.0041527609
      0.2129719573
     -0.2231490029
      0.3182005679
      0.6694900927
      0.5537483224
      0.5092738241
      0.1209367970
      0.1310357086
     -0.6878381776
      0.8538731082
     -1.2541366014
     -0.2862644166
     -0.5900418066
      1.3117520504
     -0.9319997116
     -0.1024553572
     -0.1384560102
     -0.7633163676
     -0.1420135161
      0.5984766770
      0.5678267278
     -0.3035138359
     -0.1150623419
      0.0446731190
     -0.3997665991
     -0.0009628897
      0.1898595904
     -0.0213038249
     -0.3412188115
      0.4094836705
      0.0313087471
      0.1475447016
     -0.0643391234
      0.2406586816
      0.1852999583
      0.2620546088
      0.5056801103
     -0.4792620057
      0.0340715430
      0.0699389231
     -0.6161935207
     -0.7293622764
     -0.3367679013
      0.0827611742
     -0.1988665626
      0.1275825440
     -0.0018185430
     -0.4002117744
      0.1821334698
     -0.1832568216
      0.5237334794
      0.5823903062
      0.4357128780
      0.1933684268
     -1.2277571278
      0.4122296433
      0.3251254099
     -0.0602100612
      0.6206575532
      0.4416561694
     -0.2278364865
     -0.3772353432
     -0.2415946804
      0.0308670423
      0.3450770702
     -0.1211437101
     -0.0683298611
      0.0970246913
      0.0406701741
     -0.1694298140
     -0.0689857873
     -0.1926173611
     -0.0206869564
     -0.0835492073
     -0.0659743017
     -0.0372797840
     -0.1305973584
      0.0858075294
     -0.1763145429
     -0.1008043065
      0.0398154207
     -0.0554992577
      0.1853235317
      0.0713757304
     -0.0649070673
     -0.0506308427
     -0.4809631095
      0.0469592121
     -0.4825390700
      0.2875469505
     -0.0863529957
      0.2330963018
     -0.2656037406
     -0.3549598529
      0.2055726968
     -0.0786669852
      0.0327329197
      0.0175936342
      0.1482158660
      0.3495933142
      0.3357509410
      0.2928693074
     -0.1059362666
      0.2603624085
     -0.1295344030
      0.0996858225
      0.2055964113
     -0.4641371704
      0.0979961898
     -0.4218303299
     -0.7946909949
      0.0232966379
      0.1385436237
     -0.0604418480
      0.2111310814
      0.1670809112
      0.4033921134
     -0.5696375284
      0.3113981431
      0.1779145431
     -0.4894011083
      0.0048540749
      0.0494178416
      0.1881273278
     -0.0395121076
     -0.0450981959
      0.2165109346
     -0.4184140617
      0.2712495219
      0.0049218900
      0.3140658387
      0.1504539971
      0.3147084001
      0.2585619422
      0.1229662905
      0.2031115624
     -0.2894960388
      0.0035225004
     -0.6861736261
      0.1905180590
     -0.0042010158
      0.5539286139
      0.1145413975
      0.2547106565
      0.3874741134
      0.2664942320
      0.5350433526
      0.0361157925
     -0.1678762173
     -0.3341106917
      0.0315034239
     -0.2839183669
     -0.0198550927
     -0.0093472096
     -0.1295894024
      0.4158553258
     -0.0760073346
      0.2532715887
     -0.0685324836
      0.0283583966
      0.1583473261
     -0.0014039285
      0.5689163260
      0.5794297385
     -0.3679380867
     -0.2135953941
      0.2757409212
      0.1671537865
      0.2906069867
     -0.5066448922
     -0.1374617319
     -0.2862636062
     -0.2167284733
     -0.2842319833
     -0.0494100127
      0.2789812096
      0.3966322405
      0.1898152336
     -0.3624063682
     -0.1572535153
     -0.2534049968
     -0.3899631648
     -0.4385797132
     -0.1759656481
     -0.0328784458
     -0.3588107788
      0.2252790938
      0.1149559706
      0.2374479922
     -0.9402198623
      0.3518902481
      0.5940629990
      0.3570536477
      0.0472628551
     -0.2087560324
      0.6354962214
      0.3149217747
     -0.1287703014
     -0.0778768355
      0.3164139072
      0.1286101225
     -0.0131129221
      0.4018167751
      0.1631922271
     -0.1418300355
     -0.0518868932
     -0.6026878548
     -0.2936356356
     -0.0124182257
     -0.3121294184
      0.0973728938
      0.0813906099
      0.3468607244
     -0.1634163049
      0.2704784258
     -0.2517716621
      0.0761200293
     -0.3815775094
      1.1758330615
      0.2283863829
      0.4915953215
     -0.0089879503
      0.0397549027
      0.3668049410
      0.3419391018
      0.2127651661
     -1.2024666255
      0.6169163719
     -0.2233291028
      0.2714291977
     -0.0607205080
     -0.6452104318
      1.3603030882
      0.4288671501
      0.2487471091
     -1.0483047319
     -0.0604773929
      0.4159815362
     -0.0953737862
      1.2339384908
     -1.5031537652
     -0.7385689374
     -0.7182121223
     -0.2829222175
      1.1383185960
     -0.5020443596
      0.8888185188
     -0.0917063646
     -1.5242457581
     -0.3113221652
     -1.1193410389
     -0.0767852842
     -0.2833230797
      0.3018757480
     -0.2612430709
      0.2087990431
     -0.8126356164
     -1.3783971191
      0.1330807361
      0.4790343057
     -0.1146731984
     -0.7266566121
     -0.3659742652
      0.2673652921
     -0.5561189469
     -0.2830799020
     -0.2721809848
      0.7916400278
     -0.1922865007
      0.3380040923
      0.3215076435
     -0.4290703381
      0.7267377077
     -0.2873707173
      0.3000610297
     -0.5277825279
     -0.9610369387
      0.3977632376
     -0.9107683989
      0.7097001188
     -0.5039193155
      0.1750961415
     -0.4571626150
      0.5246970358
     -0.6977329116
     -0.5478116145
      0.7485192274
      0.5940093810
     -0.0609618468
      0.7246265217
     -0.2128138998
      1.0220713972
     -0.1932092783
     -0.7710552231
      0.4471066642
     -0.4415395703
     -0.5745316221
      1.1129963333
     -0.7240948475
     -0.8774397610
      0.2357654369
      0.7795703586
      0.5065260665
     -0.6945708073
     -0.4677893675
      0.1791310059
     -0.4799478764
      0.2007951261
     -1.1031255812
      0.6619899490
     -0.0508870519
      0.5868738622
     -0.7114979415
     -0.3293707063
     -0.5775030992
     -0.2925575349
      0.2273359665
     -0.4647043214
      0.8319740084
      0.0967314234
     -0.5132721597
      0.6760091629
     -0.7493919075
     -0.3396621393
      0.2159510560
      0.1014802412
     -0.8780939155
     -0.3524730679
      0.2612886284
      0.5579761498
      0.1187863773
     -0.5547664904
      0.0588956764
     -0.9892143815
     -0.5760500026
      0.2135089258
      0.4602589809
      0.1560525844
     -0.6267911513
     -0.5643601679
     -0.4152377007
     -0.6119141907
     -0.1576289639
     -0.5397628516
     -0.5416576006
      0.8466107764
      0.7808617722
     -0.0953486159
      0.5761620224
     -0.6861822736
      0.7257841531
     -0.3920559726
      0.9834821706
      0.5650095345
     -0.1339147874
      0.9078972367
     -0.5219295566
      0.6289723856
      0.3598587090
      0.3230891067
      0.0896112704
      0.3222757404
      0.7118946173
     -0.2865625661
     -0.8264459036
      0.0731633778
      0.2932090695
     -0.5402734375
     -0.2129138999
     -0.4599560042
     -0.4075384194
     -0.3713434223
     -0.2813976019
      0.6106286051
     -1.7289666836
     -0.2604886504
      0.2970333239
      0.3831786286
     -0.0478943330
      0.6372341334
      0.3122334617
     -0.2382367015
      0.2628595578
      0.3691867529
      0.6303778682
     -0.0994822342
      1.1494551728
     -0.1678430050
      0.6551598545
     -0.2294044664
     -0.2045719285
     -0.2983970639
     -0.3765878871
      0.2973368022
      0.4456372909
     -0.0914930201
      0.6264911017
     -0.8629000351
     -0.4339165094
     -0.0591954278
     -0.0818654730
     -0.2048380280
      0.1160682108
      0.1484126371
     -0.5118113377
     -0.6856828442
      0.8165773671
     -0.8467590431
      0.6922717765
     -0.1891166999
     -0.8927336897
     -0.2478513093
      0.1011748749
     -0.1088499738
     -0.2241215285
      0.1504264065
     -0.5052513078
      0.7209544897
      0.8340770625
      0.1927592974
     -0.8231892453
      0.7066029200
      0.0101899791
     -0.8460552359
     -0.7417322800
      1.1182967616
      0.6689211734
     -0.5066988420
      0.0684272272
     -0.8865896847
     -0.1985278148
     -0.6035158551
      0.5618731722
      0.6792303771
     -0.2916355987
      0.7528028311
      0.6552188600
      1.1118880183
      0.2794423738
      0.3571305484
     -0.0692734627
     -0.7723025878
     -1.0064829676
      0.6403372253
     -1.0246677849
      1.7929171923
      0.3254633557
      0.5869922313
     -0.9876328497
      0.2798939493
     -0.5963853980
      0.9910168183
     -1.6419080610
     -1.0554525286
     -1.9177660322
      0.0435934483
      0.3614750392
     -0.0026047755
      0.0213613554
      0.2034253255
     -0.0849903097
      0.0000024350
      0.0462765618
      0.0870763355
     -0.0434806049
      0.1278232101
     -0.0017755440
      0.0825451132
     -0.0974947771
    -37.9319147996
