-0.4561273352
0.0741195088
-0.7804122621
-0.2529605018
-0.2245346471
0.3927836528
-0.3748385101
-0.0516007613
-0.0780768218
0.3160997895
-0.1837799503
-0.5075766091
-0.0123368038
0.0543517851
0.3689435972
-0.0860496307
0.4527261538
-0.2569661077
0.1976015275
-0.0131848153
-0.0592439136
0.0100498472
-0.2393314235
-0.1643845979
-0.1862377301
0.1652293274
-0.2255513915
0.1148805111
0.0702576501
0.1200797682
0.3609905214
0.3044520756
-0.3521972138
0.3312679872
-0.1068638741
0.0025417408
-0.4895287775
0.2382381684
0.4161221991
0.0919946805
0.1048218510
0.0024468515
-0.0115210292
-0.1092779012
0.1242589576
-0.2212004005
0.1531663759
0.2319415375
0.1962451558
-0.4064542919
0.3808729601
-0.0149244707
0.0727711967
0.1421457136
-0.0879510838
-0.1880451570
-0.0836316266
-0.0970636372
-0.5490273418
-0.0062217247
-0.3534731223
-0.0920535485
-0.1486659427
0.1393951000
-0.0457549670
0.2252479624
-0.4403498809
-0.3371697629
-0.0513909062
-0.2165688448
0.2013157340
-0.1730992401
0.3248245481
0.3500283732
-0.4930468405
-0.1962020254
-0.1907511382
-0.3660264967
-0.0632720251
0.1250025708
0.1682842276
-0.1200758720
0.4205177968
-0.2513798235
-0.4252668587
-0.2898510369
-0.5742090778
-0.0333703254
-0.2553895474
0.3126208279
-0.4114930143
-0.2314660079
0.1216829814
0.2890818570
-0.4558994404
0.3868626044
0.2803917171
-0.7989316738
0.2115635664
0.3955069968
-0.2799096497
0.1896396512
-0.4332420704
-0.2071961231
-0.2244367717
0.1488953683
-0.0485047869
0.6975532914
-0.1557857055
-0.4322046189
0.3156049873
-0.0279512672
-0.2903843822
0.1134099774
0.2227898946
-0.0294626666
0.0731014850
-0.2481090815
-0.0451956613
-0.2172564494
-0.1460824344
-0.3063461257
-0.4795548386
0.0097136152
-0.2406764847
0.2679417731
0.2894366284
0.0806074628
-0.1499803709
0.5618179634
-0.1495890374
-0.0864505193
0.3827766878
0.1007877559
-0.3444985179
0.6466210873
-0.0715009173
-0.2969768872
0.2874927004
-0.0601946023
-0.1360218831
0.3694715535
-0.1293135386
-0.0412346014
-0.2619297910
0.0581212946
-0.0002940697
0.4123872707
0.2975239532
-0.0714201659
-0.1556608818
0.0983568017
-0.0405065951
-0.1283388946
0.1089558483
-0.2669970198
-0.3108176650
0.4019556825
0.0594455423
-0.0157705471
-0.3365940113
-0.2829928114
-0.2746118880
0.3888823246
-0.0230892757
0.7629038738
-0.0717539589
-0.1770801872
-0.1623228753
0.1209292051
-0.4313819447
0.5059892300
0.0553072397
-0.3216696454
0.1914104492
-0.1281389898
0.0514889444
-0.0062391538
-0.0547402928
-0.0730304201
0.3641142636
0.2192862759
-0.1409556578
0.3024678570
-0.2623967714
0.1219130121
-0.0085138100
0.2481450374
-0.0429324856
0.3772495445
0.1627606862
-0.4152413257
-0.0212038817
-0.0419929758
0.6960881334
-0.3940633163
0.1084502096
0.0702129984
0.1892275073
0.1298277581
-0.1164065244
-0.0565143807
-0.1415665261
-0.0100282372
-0.1259481557
0.3311570954
-0.2072760676
0.0824299596
-0.4783614947
-0.2637738818
0.5197588619
-0.0481383832
-0.1742029267
0.4461396652
0.6163407707
0.2335453125
-0.3065865289
-0.5263458195
-0.3479962191
0.0581075296
-0.2943772996
0.2840846330
-0.2500815669
0.0958376323
0.8058769028
-0.3164651140
0.0723009936
0.2543902174
-0.0558450659
0.1738939990
-0.3314902720
0.4720129949
0.0394096517
-0.2033336948
0.3471344060
-0.3743611114
-0.6463267032
0.6032535602
-0.5166650006
0.0285862556
0.0945468803
0.0548859669
0.2234055635
0.2817317476
0.1746106577
0.1425623016
-0.3661845006
0.0705588468
0.2799287316
-0.4363933590
0.0178829523
-0.4744581379
0.7697531493
-0.3994466252
0.3146173842
0.2807074217
-0.6787628914
-0.2034636988
-0.5173503614
-0.1684128905
-0.4536798679
-0.2421867946
-0.2716975738
-0.0458421794
-0.2177344261
0.2078925830
-0.2569336801
0.8421305213
0.3805141545
-0.5814489607
0.2204939179
-0.6614035044
0.0210192346
-0.4530438537
-0.1765377726
-0.2973026110
0.0038929866
0.5179118359
0.5841429916
-0.4838606709
-0.8775719264
0.0867422233
0.6909204532
-0.7868127341
0.0016077040
-0.6293709591
0.1503209063
-0.0906413603
0.5386591237
0.3304557272
0.1540979279
-0.7015341891
1.0044715160
0.3694726806
-0.0114024339
-0.4504315706
0.2726146937
0.0156662648
-0.1734859755
0.1947873472
0.2870607189
0.4961988379
0.4681065297
0.3334081685
-0.0678724143
0.0833962532
-0.0581592153
-0.0221973216
-0.1954532074
-0.5212084184
0.2740496138
0.1843578690
-0.0494215442
-0.3563949283
0.9013168985
0.1152949903
0.6781217494
-0.1493376748
0.1399001059
-0.0919346901
-0.4188657913
-0.2832299915
-0.1538879072
0.3566893949
0.0531295959
0.0533479905
0.4256147575
-0.8335415015
-0.5045416949
-0.0216818510
0.3942734952
-0.1954336743
-0.3843112984
0.5619741295
-0.6159732635
0.3155765416
0.0004744090
-0.3494187776
0.1522532756
0.2791288623
0.2442700730
-0.0293494621
-0.7023578264
-0.0288427228
-0.1968398065
-1.1454565573
0.8634863160
0.0544514729
-0.0906953054
0.8742528466
-0.2047324054
-0.3912883529
0.6366065751
-0.3780198487
0.0158984450
0.0118271502
0.1909741723
0.2495351798
0.5449511144
-0.1218378281
0.2961756048
-0.6573660852
-0.1557888038
0.0447376836
-0.0461425628
-0.3047009809
0.1961872972
-0.0496563604
-0.2750592373
0.7891011558
0.1719351641
0.2524052793
0.0561693020
-0.1940369149
0.5709912691
1.2465992135
0.5341539804
-0.4149490197
0.1450069864
-0.3937824135
0.8367622353
0.5315948946
0.1866830774
0.0928657263
0.7090430500
0.2371218240
0.1576774593
0.1225940047
0.2892295802
0.2652106269
0.0346718376
0.2495665628
-0.3472453618
-0.1339597312
-0.2322608493
-0.2167174316
0.0321415096
-0.1695335076
-0.3003495661
0.0310857510
-0.1561304379
-0.0558129018
0.3663418507
-0.2005840293
0.0840661824
0.1415097041
-0.1724756732
-0.0343867168
0.1665417420
-0.3591773051
-0.2567683303
-0.3809573401
0.4111743356
-0.2502627710
0.0718826238
-0.0178292751
-0.2001467601
-0.5051009144
0.0126238222
0.5318032296
0.0974558415
-0.2019665394
-0.0340354522
-0.2878908442
0.1245457656
0.3833894644
-0.0489353179
0.0598129718
0.1807893757
0.1542342757
-0.2101594492
0.2770641157
0.0610263394
0.1755953327
0.4135493428
-0.0155432661
0.2086528866
-0.2453935051
-0.4959197351
0.0632903589
-0.1997024340
0.2669526550
0.1961416796
-0.0096360793
0.3734993627
0.2799233942
0.4059879805
-0.3084766737
-0.6188609266
0.2865577840
0.4025644573
-0.2075143515
0.0556459297
0.0391320938
0.0133707246
0.1668941377
0.4934306636
-0.1263724684
-0.0483206496
-0.1556156524
-0.4207909049
-0.3871462913
0.2165358488
0.1242814288
-0.1994687974
0.2999313555
-0.0985851849
-0.6451179116
0.3451384234
-0.7355769849
-0.0072412879
0.3231723868
-0.0884131996
-0.0377637816
-0.0606711080
-0.1758928249
0.3043109838
0.1126365076
-0.2157846631
-0.0096743525
0.6956880528
1.0487354871
-0.0487989252
0.2149933563
-0.3878015960
-0.0996523877
0.1494030100
-0.5443894678
-0.4068586666
0.4675539860
0.3500514099
0.1964202215
-0.1500794366
-0.5910289604
0.2591522386
-0.1927601699
-0.2164046930
-0.1764431477
-0.0445319404
0.0036882300
-0.2557215629
-0.3191047999
-0.2905009117
0.4925010182
-0.2837248501
-0.4634543730
-0.1079671776
0.5143241187
0.3811509695
0.3779063075
-0.3669427084
0.2678125340
-0.7463246384
-0.0906293679
0.3655128830
1.4234615147
0.4947344940
-0.3425473243
0.0784496498
0.4289823057
0.8992333481
0.0297015686
0.2026397834
0.0961589382
-0.1096224256
-0.3651450614
0.3606830712
-0.3102097214
0.4403770405
0.0346259497
0.0503692483
0.0971142986
-0.0893981932
-0.2276531536
0.2330086496
0.3257048946
0.1220295510
-0.4782337437
0.1204369512
0.3860587397
-0.6086060597
0.4852655212
-0.0780330610
-0.2188077819
-0.1020849313
-0.1092628370
-0.4091963092
0.4226640198
0.0610393747
-0.3097133810
0.3190675426
-0.0508387212
0.4404459570
0.3081730786
0.5969759643
0.9837668248
-0.3138321318
-0.4504976728
0.2410612279
0.1373906150
0.2712246610
-0.0350097886
-0.4428337443
0.1816893068
-0.0452752123
0.4413596035
0.0461874915
-0.0911429361
0.3321466762
0.3144051607
-0.2003653052
0.1714414074
-0.1126630810
0.0496499338
0.3498008164
-0.2491207708
-0.3482954121
-0.1682250863
-0.3420694913
-0.1799849279
-0.2235055117
0.1355101097
-0.3224170831
-0.5222844180
-0.0248564073
0.0145093634
0.1873624171
-0.3210010708
-0.3965648969
-0.3862620618
0.2117387020
0.2114328997
0.2255242345
0.4107589710
-0.2209840058
-0.2387102970
-0.0548235213
-0.0565765131
0.1654909442
-0.0876024996
0.0986162368
0.0159973074
-0.1399059545
-0.2031368073
-0.2477831183
0.1928619006
-0.8892358062
0.3162970646
0.4614995353
0.1640123141
-0.1393765310
0.0285308792
0.1437655903
0.0676678811
0.2254932002
0.6079714935
-0.2821357301
-0.0272994806
-0.0767533202
0.2423769320
0.2806052299
-0.1659155535
-0.6449244174
-0.0232518612
0.1877591644
0.2115205024
-0.2991866524
-0.3413484805
0.3850594116
-0.1875023941
0.1997247253
-0.0356529587
-0.4932950242
0.2802334803
-0.2933586862
-0.4237735647
0.6643361339
-0.0321865446
0.6276431001
0.2867916749
0.1534127104
0.3450904360
0.5589163934
0.1921651011
0.5803744204
0.1207993530
-0.1343050210
-0.1007094148
-0.5313407688
-0.0832169088
-0.1883489407
-0.2754544527
-0.2692372965
0.3362188249
-0.2349697232
-0.6025737547
-0.4506234344
-0.2430955244
0.2724256447
0.3561807649
0.1289942944
-0.4826789097
0.1443860288
0.4185808445
-0.0231327872
0.0345728722
-0.0845938267
-0.4174506869
0.3541635791
0.2436685226
0.1943672840
-0.2918641652
0.0270957493
0.1593908861
-0.2260851538
0.1252968048
-0.5482196633
-0.1251218544
0.4687427702
-0.1969976143
-0.3483639392
0.1275016886
-0.0523554617
-0.0656844289
0.1205366766
-0.2106634252
0.1524864604
-0.0616272571
-0.6781140719
-0.7038148483
-0.0335142802
0.2593799917
-0.0146454059
0.2559071627
-0.1141422635
-0.7253713696
-0.0824883876
0.1507324857
-0.7823866441
-0.0384919462
0.2093744948
0.0802998028
-0.0154507531
-0.3275366612
-0.0839079087
0.3229943604
-0.0559160996
0.2909244144
-0.0921421656
0.1131572162
-0.0862136304
-0.0293592555
-0.4121432580
0.6886508169
0.0117960019
0.0604002741
0.0036970387
0.2348888569
0.3203321236
-0.4092101155
0.3023121994
0.5427230069
-0.4970420347
-0.6280263707
0.4648149267
0.0534193617
0.4966234115
-0.5312784887
-0.0466041866
0.0136722876
-0.1888120213
0.0688089367
-0.1124489416
0.1495640160
-0.1201611403
-0.1377985788
-0.1070896888
0.0273860328
0.0304796325
-0.0780772530
-0.0381533823
0.0206221364
0.1109096860
0.0920680335
0.0024851674
-0.1284864913
0.0990744198
-0.0940419320
0.0047035451
-0.1296376791
0.1226243121
-0.0133036580
-0.0852734373
0.0736416898
-0.0200478131
-0.0258652493
-0.0368709198
0.0087176150
0.1104234195
0.0324569317
0.0112382807
-0.0527532207
0.1361037540
0.0301712195
0.0442789233
-0.0734195022
0.0957926505
0.1690907587
-0.2163540249
0.1535087026
-0.2713900145
0.2397222333
0.2084026575
-0.5831270311
0.1157122430
-0.5400682189
-0.3717443923
0.0491051565
0.0923625357
-0.4681214672
-0.2908703921
0.2288244204
0.0473985547
-0.1124485637
0.2159476708
0.2522282115
-0.1944392104
-0.0730777788
0.3938109511
0.3191086803
0.3289266741
-0.5196577846
-0.2737718815
0.0730477186
-0.0746866151
-0.1041446611
-0.1275602720
0.7404428450
0.2014302029
-0.0592548896
-0.6071157552
0.2416032215
-0.5341285915
-0.0729352249
0.3936010416
0.2580552720
-0.2648281793
0.2668944829
0.2576263176
-0.1227479877
0.4291148223
0.4981315675
0.1908260439
0.0123492596
-0.0940200098
0.7443081581
0.8823280167
-0.3377193356
-0.1080735954
0.1710685019
0.1988676246
-0.2697822374
0.0611049645
0.1286408687
-0.2917074522
-0.1722391915
0.1951540063
-0.0676064678
0.4666623018
0.3352692695
-0.4085838943
-0.0752834194
-0.0611545512
-0.0231778804
0.2439458637
0.0932249360
0.5171855529
0.2496980670
-0.2923962267
0.3081316653
-0.5532574601
-0.2433660248
0.6796229536
-0.6784467235
0.0044990684
0.1002623408
0.2336760450
-0.0810674389
-0.0183962946
-0.1466618532
0.5092936188
-0.0477005086
0.3218822491
-1.1769997778
-0.3097801455
-0.1098091454
0.6381408332
0.4373896909
-0.3070415714
-0.0214444810
-0.0178035118
0.4272823129
-0.0149713765
0.0597054271
-0.2141819607
-0.1080881264
-0.1340730526
-0.0745739525
-0.6448872600
-1.1156293896
-0.5963518969
-0.4821716034
1.0674523896
-0.4431148772
0.2181013241
-0.7639149610
0.0665567209
-0.4789935632
-0.5899169491
0.5968009396
0.7138178404
-0.8496734649
0.3540543727
0.3564497641
0.0235332327
0.1079432548
0.9644345910
-0.8761537429
-0.3303781275
0.6041471482
-0.8915109997
-0.7289337142
0.4078224120
-0.1872538800
1.1357069635
0.3166464162
-0.4021800440
-0.2986099502
0.4490628210
-1.0905473144
0.5692828054
0.4770453307
0.8480353268
-0.8100567811
-0.5344605467
-0.0466842152
0.4412598493
-0.7658858687
-0.3838376524
-0.0786920693
-0.0401992143
0.6995545209
0.4309961343
-0.0433156488
-0.3378353325
0.1903393360
0.6296092613
0.2388880111
0.4936720424
-0.7775789989
0.2311260864
0.1133048690
-0.9743268017
0.5641900850
0.5817928408
0.5993631745
-0.0504416914
0.1374211241
0.1184499761
0.0267771344
-0.3405742040
0.3111791989
-0.0369284747
-1.2040913725
-0.1894640368
-0.1193191971
0.1782095577
0.4460907861
-0.5342860947
0.2618153618
-0.8233806238
-0.3447113541
0.2077177014
-0.5455303194
-0.4641264116
-1.0008075120
0.9728512350
0.1893838856
-0.9592088957
0.1892025657
-0.6171459451
0.3271234793
0.5044802312
0.0895423337
-0.1643510089
0.4586559354
0.5750794352
0.2844132539
0.6386617931
0.5925051483
0.5168730648
0.7761495205
0.3026031870
0.0495966579
0.1771793570
-0.3361345503
0.6095420352
-0.3735111526
0.4568154220
-0.8884237162
-0.2478301660
0.3178467913
-0.0387579500
0.5478496962
-0.4352518772
-0.3158563896
-0.0965702650
0.4019457025
-0.4892543294
0.4435376235
0.5651789132
0.9285686526
-0.5127121531
1.0928159806
0.5406613988
-0.1472360966
0.5205945498
-0.2671787206
-0.0608759569
0.0020223064
0.9002988086
-0.5018142498
0.6442493195
-0.6435734867
-0.2746980190
-0.8409330891
0.6030120303
-0.7909824830
0.6761726975
0.3344395526
-0.2425410464
0.6202168047
-0.0121838151
0.8903840476
-0.1516817820
-0.6267539156
0.2857704273
-0.2540251179
-0.4018445605
0.2700076637
0.1496664104
0.1431900442
0.2653497866
0.3194290165
-0.0400136286
-0.8083719259
0.1188945969
-0.7486007641
-0.2428351784
-0.3202616933
0.4722010193
0.5333677113
-0.7195464632
-0.4364448624
0.2413658445
-0.9643800351
-0.3855122729
-0.0525175175
0.1334392992
-0.3186368444
0.7654693373
-0.3465241181
-0.4151137559
0.5409365185
0.2165138433
0.0218387550
0.5553728529
-0.2152943146
0.2445857863
0.3894899868
-0.5030097071
0.1327077655
-0.7107298420
-0.6856288504
0.1583009665
-0.1443045792
-0.5156903435
-0.4508171537
-0.5984103997
-1.0784122179
-0.3248107674
0.5752932412
0.5185818201
-1.1473074424
-0.1227473653
0.2115730774
0.3160639742
0.1307588585
-0.6714692662
0.2060390367
-1.0033717902
-0.7031799910
0.6133344507
-0.1124904466
-0.6774945897
0.1979141575
-0.4153133428
-0.7080700066
-0.5462045437
0.2642234343
0.5562065872
0.0617578063
-0.0696313447
0.3111565817
-0.0856362367
0.1803084307
-0.6600301658
0.4930865624
-0.5773602035
-1.5365086014
1.3689448031
-0.0013872040
0.7597150243
0.5836493765
0.1098941981
1.2517273261
-0.1902730813
0.9904588392
0.2786053236
1.1941725618
-1.2847950327
-0.2851721684
0.0933471390
0.0433883372
0.0684949058
-0.0271007945
0.2174726467
0.1615881273
-0.0080879042
-0.2447826697
0.0004078358
0.0215796746
0.3708111812
0.4091470180
-0.1371518915
0.1716821094
-37.8868446985
